{
  "version": "1.0",
  "truncation": null,
  "padding": null,
  "added_tokens": [
    {
      "id": 0,
      "content": "[UNK]",
      "single_word": false,
      "lstrip": false,
      "rstrip": false,
      "normalized": false,
      "special": true
    },
    {
      "id": 1,
      "content": "[PAD]",
      "single_word": false,
      "lstrip": false,
      "rstrip": false,
      "normalized": false,
      "special": true
    },
    {
      "id": 2,
      "content": "[CLS]",
      "single_word": false,
      "lstrip": false,
      "rstrip": false,
      "normalized": false,
      "special": true
    },
    {
      "id": 3,
      "content": "[SEP]",
      "single_word": false,
      "lstrip": false,
      "rstrip": false,
      "normalized": false,
      "special": true
    },
    {
      "id": 4,
      "content": "[MASK]",
      "single_word": false,
      "lstrip": false,
      "rstrip": false,
      "normalized": false,
      "special": true
    }
  ],
  "normalizer": {
    "type": "Sequence",
    "normalizers": [
      {
        "type": "Replace",
        "pattern": {
          "Regex": "[\\p{Other}&&[^\\n\\t\\r]]"
        },
        "content": ""
      },
      {
        "type": "Lowercase"
      },
      {
        "type": "NFD"
      },
      {
        "type": "StripAccents"
      }
    ]
  },
  "pre_tokenizer": {
    "type": "Sequence",
    "pretokenizers": [
      {
        "type": "Whitespace"
      },
      {
        "type": "Punctuation",
        "behavior": "Isolated"
      }
    ]
  },
  "post_processor": {
    "type": "TemplateProcessing",
    "single": [
      {
        "SpecialToken": {
          "id": "[CLS]",
          "type_id": 0
        }
      },
      {
        "Sequence": {
          "id": "A",
          "type_id": 0
        }
      },
      {
        "SpecialToken": {
          "id": "[SEP]",
          "type_id": 0
        }
      }
    ],
    "pair": [
      {
        "SpecialToken": {
          "id": "[CLS]",
          "type_id": 0
        }
      },
      {
        "Sequence": {
          "id": "A",
          "type_id": 0
        }
      },
      {
        "SpecialToken": {
          "id": "[SEP]",
          "type_id": 0
        }
      },
      {
        "Sequence": {
          "id": "B",
          "type_id": 1
        }
      },
      {
        "SpecialToken": {
          "id": "[SEP]",
          "type_id": 1
        }
      }
    ],
    "special_tokens": {
      "[CLS]": {
        "id": "[CLS]",
        "ids": [
          2
        ],
        "tokens": [
          "[CLS]"
        ]
      },
      "[SEP]": {
        "id": "[SEP]",
        "ids": [
          3
        ],
        "tokens": [
          "[SEP]"
        ]
      }
    }
  },
  "decoder": {
    "type": "WordPiece",
    "prefix": "##",
    "cleanup": true
  },
  "model": {
    "type": "WordPiece",
    "unk_token": "[UNK]",
    "continuing_subword_prefix": "##",
    "max_input_chars_per_word": 100,
    "vocab": {
      "[UNK]": 0,
      "[PAD]": 1,
      "[CLS]": 2,
      "[SEP]": 3,
      "[MASK]": 4,
      "!": 5,
      "\"": 6,
      "#": 7,
      "&": 8,
      "'": 9,
      "(": 10,
      ")": 11,
      "*": 12,
      "+": 13,
      ",": 14,
      "-": 15,
      ".": 16,
      "/": 17,
      "0": 18,
      "1": 19,
      "2": 20,
      "3": 21,
      "4": 22,
      "5": 23,
      "6": 24,
      "7": 25,
      "8": 26,
      "9": 27,
      ":": 28,
      ";": 29,
      "?": 30,
      "a": 31,
      "b": 32,
      "c": 33,
      "d": 34,
      "e": 35,
      "f": 36,
      "g": 37,
      "h": 38,
      "i": 39,
      "j": 40,
      "k": 41,
      "l": 42,
      "m": 43,
      "n": 44,
      "o": 45,
      "p": 46,
      "q": 47,
      "r": 48,
      "s": 49,
      "t": 50,
      "u": 51,
      "v": 52,
      "w": 53,
      "x": 54,
      "y": 55,
      "z": 56,
      "ł": 57,
      "–": 58,
      "”": 59,
      "„": 60,
      "##n": 61,
      "##a": 62,
      "##t": 63,
      "##u": 64,
      "##r": 65,
      "##l": 66,
      "##e": 67,
      "##p": 68,
      "##d": 69,
      "##i": 70,
      "##g": 71,
      "##v": 72,
      "##o": 73,
      "##s": 74,
      "##c": 75,
      "##f": 76,
      "##m": 77,
      "##h": 78,
      "##z": 79,
      "##y": 80,
      "##k": 81,
      "##b": 82,
      "##x": 83,
      "##w": 84,
      "##q": 85,
      "##7": 86,
      "##9": 87,
      "##5": 88,
      "##0": 89,
      "##3": 90,
      "##2": 91,
      "##j": 92,
      "##6": 93,
      "##1": 94,
      "##ł": 95,
      "##8": 96,
      "##4": 97,
      "th": 98,
      "the": 99,
      "##er": 100,
      "##in": 101,
      "##ed": 102,
      "##en": 103,
      "##at": 104,
      "##on": 105,
      "##es": 106,
      "##nd": 107,
      "##or": 108,
      "##ou": 109,
      "of": 110,
      "to": 111,
      "##ar": 112,
      "##ing": 113,
      "##is": 114,
      "in": 115,
      "##an": 116,
      "##as": 117,
      "##it": 118,
      "and": 119,
      "##al": 120,
      "##re": 121,
      "##ic": 122,
      "be": 123,
      "##om": 124,
      "##ll": 125,
      "##ent": 126,
      "wh": 127,
      "he": 128,
      "##ly": 129,
      "##ion": 130,
      "##ad": 131,
      "##le": 132,
      "##ot": 133,
      "##ut": 134,
      "##ve": 135,
      "##ow": 136,
      "##st": 137,
      "on": 138,
      "##et": 139,
      "was": 140,
      "that": 141,
      "it": 142,
      "##ac": 143,
      "##ld": 144,
      "for": 145,
      "##se": 146,
      "##ay": 147,
      "##ir": 148,
      "##gh": 149,
      "##id": 150,
      "re": 151,
      "is": 152,
      "##ur": 153,
      "as": 154,
      "st": 155,
      "sh": 156,
      "##ith": 157,
      "##ver": 158,
      "an": 159,
      "##im": 160,
      "pr": 161,
      "##ter": 162,
      "with": 163,
      "##ce": 164,
      "his": 165,
      "##ch": 166,
      "##ct": 167,
      "at": 168,
      "had": 169,
      "##th": 170,
      "ha": 171,
      "##od": 172,
      "we": 173,
      "fr": 174,
      "you": 175,
      "##am": 176,
      "##ation": 177,
      "##ght": 178,
      "ch": 179,
      "##op": 180,
      "##il": 181,
      "se": 182,
      "##ill": 183,
      "but": 184,
      "not": 185,
      "##ain": 186,
      "su": 187,
      "##em": 188,
      "con": 189,
      "##ab": 190,
      "her": 191,
      "##ess": 192,
      "ne": 193,
      "##ol": 194,
      "by": 195,
      "##est": 196,
      "de": 197,
      "##ri": 198,
      "com": 199,
      "##ould": 200,
      "##ul": 201,
      "##ich": 202,
      "##pp": 203,
      "##ge": 204,
      "this": 205,
      "##ers": 206,
      "##ke": 207,
      "##our": 208,
      "##ere": 209,
      "li": 210,
      "go": 211,
      "ex": 212,
      "which": 213,
      "have": 214,
      "##us": 215,
      "##os": 216,
      "##ie": 217,
      "##ment": 218,
      "are": 219,
      "##ight": 220,
      "sa": 221,
      "mr": 222,
      "so": 223,
      "un": 224,
      "##ore": 225,
      "she": 226,
      "##ear": 227,
      "from": 228,
      "br": 229,
      "al": 230,
      "##ap": 231,
      "##ard": 232,
      "or": 233,
      "##ant": 234,
      "been": 235,
      "##ist": 236,
      "they": 237,
      "##art": 238,
      "all": 239,
      "##ome": 240,
      "##um": 241,
      "##ff": 242,
      "tr": 243,
      "##ive": 244,
      "le": 245,
      "##ate": 246,
      "##ust": 247,
      "who": 248,
      "##ast": 249,
      "me": 250,
      "##her": 251,
      "##ig": 252,
      "has": 253,
      "him": 254,
      "en": 255,
      "##and": 256,
      "ab": 257,
      "do": 258,
      "man": 259,
      "there": 260,
      "were": 261,
      "##ish": 262,
      "##ies": 263,
      "##all": 264,
      "##ound": 265,
      "will": 266,
      "pl": 267,
      "wor": 268,
      "##ect": 269,
      "##pt": 270,
      "ad": 271,
      "##iv": 272,
      "##les": 273,
      "##el": 274,
      "##ort": 275,
      "##ous": 276,
      "no": 277,
      "out": 278,
      "sp": 279,
      "one": 280,
      "lo": 281,
      "would": 282,
      "##out": 283,
      "##ally": 284,
      "##ok": 285,
      "up": 286,
      "their": 287,
      "ar": 288,
      "ag": 289,
      "##ence": 290,
      "said": 291,
      "##itt": 292,
      "per": 293,
      "##ong": 294,
      "ro": 295,
      "##end": 296,
      "pro": 297,
      "##un": 298,
      "##ak": 299,
      "kn": 300,
      "##able": 301,
      "##ough": 302,
      "##ci": 303,
      "what": 304,
      "can": 305,
      "##one": 306,
      "##own": 307,
      "ev": 308,
      "mo": 309,
      "##ity": 310,
      "##ice": 311,
      "##ack": 312,
      "gr": 313,
      "##ry": 314,
      "when": 315,
      "##ind": 316,
      "int": 317,
      "pe": 318,
      "##ag": 319,
      "##ure": 320,
      "more": 321,
      "##act": 322,
      "##ace": 323,
      "if": 324,
      "##ime": 325,
      "us": 326,
      "di": 327,
      "##ther": 328,
      "##mp": 329,
      "##ine": 330,
      "fir": 331,
      "##ud": 332,
      "##ond": 333,
      "them": 334,
      "off": 335,
      "qu": 336,
      "comm": 337,
      "part": 338,
      "##ber": 339,
      "##wn": 340,
      "##reat": 341,
      "some": 342,
      "##ary": 343,
      "cl": 344,
      "dis": 345,
      "than": 346,
      "##cc": 347,
      "af": 348,
      "co": 349,
      "fe": 350,
      "##av": 351,
      "##sel": 352,
      "##per": 353,
      "dr": 354,
      "##au": 355,
      "may": 356,
      "tw": 357,
      "##ance": 358,
      "year": 359,
      "##ble": 360,
      "new": 361,
      "##if": 362,
      "##ery": 363,
      "##ck": 364,
      "##qu": 365,
      "am": 366,
      "ever": 367,
      "##ey": 368,
      "any": 369,
      "pre": 370,
      "wr": 371,
      "##ved": 372,
      "app": 373,
      "##ame": 374,
      "about": 375,
      "over": 376,
      "##man": 377,
      "##ite": 378,
      "##ord": 379,
      "##ical": 380,
      "##oun": 381,
      "first": 382,
      "ma": 383,
      "##age": 384,
      "ind": 385,
      "bo": 386,
      "##ade": 387,
      "##ated": 388,
      "##ach": 389,
      "##ays": 390,
      "my": 391,
      "res": 392,
      "like": 393,
      "now": 394,
      "##ought": 395,
      "being": 396,
      "te": 397,
      "##ned": 398,
      "comp": 399,
      "##ions": 400,
      "only": 401,
      "even": 402,
      "##ide": 403,
      "##ild": 404,
      "other": 405,
      "str": 406,
      "how": 407,
      "##ans": 408,
      "##ations": 409,
      "two": 410,
      "could": 411,
      "time": 412,
      "und": 413,
      "##ass": 414,
      "rem": 415,
      "##ose": 416,
      "then": 417,
      "bec": 418,
      "##self": 419,
      "well": 420,
      "##ory": 421,
      "into": 422,
      "under": 423,
      "po": 424,
      "cont": 425,
      "des": 426,
      "mar": 427,
      "##lo": 428,
      "##ang": 429,
      "##ons": 430,
      "##ick": 431,
      "##ip": 432,
      "##ater": 433,
      "##ree": 434,
      "exp": 435,
      "##ouse": 436,
      "know": 437,
      "##ult": 438,
      "cr": 439,
      "cent": 440,
      "##ia": 441,
      "bet": 442,
      "fo": 443,
      "these": 444,
      "peop": 445,
      "car": 446,
      "very": 447,
      "rep": 448,
      "again": 449,
      "##aw": 450,
      "mu": 451,
      "sm": 452,
      "##ens": 453,
      "people": 454,
      "min": 455,
      "inc": 456,
      "imp": 457,
      "##fore": 458,
      "19": 459,
      "##hing": 460,
      "act": 461,
      "##we": 462,
      "ear": 463,
      "##ue": 464,
      "made": 465,
      "##ile": 466,
      "##vern": 467,
      "ang": 468,
      "govern": 469,
      "after": 470,
      "back": 471,
      "sc": 472,
      "##ful": 473,
      "##ings": 474,
      "cons": 475,
      "much": 476,
      "great": 477,
      "work": 478,
      "##fe": 479,
      "jo": 480,
      "pol": 481,
      "ger": 482,
      "pres": 483,
      "most": 484,
      "german": 485,
      "house": 486,
      "your": 487,
      "good": 488,
      "thr": 489,
      "char": 490,
      "##oss": 491,
      "##ount": 492,
      "##ase": 493,
      "##ents": 494,
      "government": 495,
      "##ink": 496,
      "ser": 497,
      "##ather": 498,
      "its": 499,
      "brit": 500,
      "ret": 501,
      "##ual": 502,
      "##day": 503,
      "##ft": 504,
      "##int": 505,
      "did": 506,
      "our": 507,
      "sir": 508,
      "fl": 509,
      "##anc": 510,
      "see": 511,
      "eff": 512,
      "##so": 513,
      "before": 514,
      "##other": 515,
      "last": 516,
      "##air": 517,
      "##ep": 518,
      "##ty": 519,
      "##ress": 520,
      "inter": 521,
      "att": 522,
      "nor": 523,
      "##lesey": 524,
      "look": 525,
      "anglesey": 526,
      "bl": 527,
      "##ro": 528,
      "##ied": 529,
      "##ily": 530,
      "##igh": 531,
      "get": 532,
      "must": 533,
      "ta": 534,
      "##ull": 535,
      "##ric": 536,
      "##iss": 537,
      "##ards": 538,
      "found": 539,
      "told": 540,
      "bel": 541,
      "rec": 542,
      "##urn": 543,
      "##ered": 544,
      "##ath": 545,
      "sec": 546,
      "sy": 547,
      "##ial": 548,
      "##ving": 549,
      "town": 550,
      "##ition": 551,
      "##alk": 552,
      "sub": 553,
      "life": 554,
      "##ub": 555,
      "##ms": 556,
      "child": 557,
      "lead": 558,
      "end": 559,
      "should": 560,
      "##ably": 561,
      "ob": 562,
      "##ave": 563,
      "##ail": 564,
      "##uc": 565,
      "##ious": 566,
      "years": 567,
      "##get": 568,
      "sl": 569,
      "##uct": 570,
      "##ves": 571,
      "here": 572,
      "##ister": 573,
      "ask": 574,
      "supp": 575,
      "dec": 576,
      "##ittle": 577,
      "every": 578,
      "little": 579,
      "##tain": 580,
      "##ester": 581,
      "##uth": 582,
      "long": 583,
      "##00": 584,
      "##ise": 585,
      "while": 586,
      "hand": 587,
      "##ign": 588,
      "down": 589,
      "thought": 590,
      "still": 591,
      "spe": 592,
      "##hn": 593,
      "need": 594,
      "god": 595,
      "num": 596,
      "##led": 597,
      "##lic": 598,
      "where": 599,
      "##ady": 600,
      "##ffer": 601,
      "gl": 602,
      "say": 603,
      "too": 604,
      "##amp": 605,
      "cour": 606,
      "let": 607,
      "sur": 608,
      "seem": 609,
      "such": 610,
      "##ular": 611,
      "add": 612,
      "adv": 613,
      "through": 614,
      "cor": 615,
      "count": 616,
      "op": 617,
      "##ng": 618,
      "##ian": 619,
      "##ried": 620,
      "also": 621,
      "acc": 622,
      "giv": 623,
      "ho": 624,
      "##ient": 625,
      "##xt": 626,
      "happ": 627,
      "##ause": 628,
      "lab": 629,
      "men": 630,
      "par": 631,
      "##par": 632,
      "##ier": 633,
      "bu": 634,
      "war": 635,
      "##ra": 636,
      "##iz": 637,
      "##fer": 638,
      "young": 639,
      "eng": 640,
      "many": 641,
      "ey": 642,
      "just": 643,
      "mon": 644,
      "ph": 645,
      "##te": 646,
      "##ism": 647,
      "make": 648,
      "##way": 649,
      "those": 650,
      "dist": 651,
      "tre": 652,
      "talk": 653,
      "way": 654,
      "##ire": 655,
      "prop": 656,
      "himself": 657,
      "bus": 658,
      "ed": 659,
      "##are": 660,
      "##ange": 661,
      "##oth": 662,
      "##ments": 663,
      "tem": 664,
      "##ren": 665,
      "##ened": 666,
      "##rect": 667,
      "head": 668,
      "##cept": 669,
      "##ope": 670,
      "effect": 671,
      "fact": 672,
      "old": 673,
      "##lish": 674,
      "##ek": 675,
      "##ities": 676,
      "never": 677,
      "come": 678,
      "far": 679,
      "pat": 680,
      "##ret": 681,
      "##land": 682,
      "##ince": 683,
      "##ann": 684,
      "##ited": 685,
      "##aken": 686,
      "labour": 687,
      "sch": 688,
      "inst": 689,
      "form": 690,
      "because": 691,
      "fin": 692,
      "ll": 693,
      "met": 694,
      "pers": 695,
      "##ost": 696,
      "##ative": 697,
      "##alth": 698,
      "##ired": 699,
      "belie": 700,
      "call": 701,
      "gen": 702,
      "##ness": 703,
      "##ting": 704,
      "##ven": 705,
      "##vent": 706,
      "##ational": 707,
      "play": 708,
      "word": 709,
      "point": 710,
      "minister": 711,
      "miss": 712,
      "##ever": 713,
      "##hod": 714,
      "##ways": 715,
      "##oup": 716,
      "##ict": 717,
      "##lear": 718,
      "##vel": 719,
      "going": 720,
      "always": 721,
      "disc": 722,
      "small": 723,
      "high": 724,
      "reg": 725,
      "ele": 726,
      "lord": 727,
      "might": 728,
      "put": 729,
      "som": 730,
      "went": 731,
      "want": 732,
      "##ix": 733,
      "##ark": 734,
      "##ower": 735,
      "##ident": 736,
      "##rib": 737,
      "##uss": 738,
      "used": 739,
      "against": 740,
      "ac": 741,
      "med": 742,
      "##ible": 743,
      "##cess": 744,
      "##ution": 745,
      "##owed": 746,
      "rel": 747,
      "cur": 748,
      "day": 749,
      "eas": 750,
      "mind": 751,
      "pass": 752,
      "##gg": 753,
      "##ject": 754,
      "night": 755,
      "##lp": 756,
      "##iting": 757,
      "week": 758,
      "mor": 759,
      "occ": 760,
      "same": 761,
      "##ell": 762,
      "##mm": 763,
      "##ying": 764,
      "##orm": 765,
      "##ote": 766,
      "without": 767,
      "meet": 768,
      "take": 769,
      "don": 770,
      "four": 771,
      "find": 772,
      "think": 773,
      "ins": 774,
      "##its": 775,
      "prov": 776,
      "##aking": 777,
      "britain": 778,
      "somet": 779,
      "lond": 780,
      "own": 781,
      "right": 782,
      "##gan": 783,
      "##ces": 784,
      "though": 785,
      "whom": 786,
      "##ott": 787,
      "##owing": 788,
      "##irl": 789,
      "##urned": 790,
      "##aps": 791,
      "london": 792,
      "est": 793,
      "set": 794,
      "##ody": 795,
      "party": 796,
      "however": 797,
      "betwe": 798,
      "course": 799,
      "gener": 800,
      "between": 801,
      "dou": 802,
      "fil": 803,
      "##res": 804,
      "##ating": 805,
      "dep": 806,
      "left": 807,
      "place": 808,
      "common": 809,
      "few": 810,
      "serv": 811,
      "girl": 812,
      "mem": 813,
      "##ling": 814,
      "##por": 815,
      "##vi": 816,
      "##ood": 817,
      "##ates": 818,
      "##ised": 819,
      "##als": 820,
      "##osed": 821,
      "upon": 822,
      "##cial": 823,
      "afric": 824,
      "appear": 825,
      "germany": 826,
      "later": 827,
      "##ton": 828,
      "##og": 829,
      "##oy": 830,
      "##ors": 831,
      "brought": 832,
      "195": 833,
      "##ference": 834,
      "fam": 835,
      "home": 836,
      "since": 837,
      "##eric": 838,
      "help": 839,
      "near": 840,
      "del": 841,
      "##ief": 842,
      "known": 843,
      "indust": 844,
      "person": 845,
      "bas": 846,
      "col": 847,
      "give": 848,
      "pur": 849,
      "sen": 850,
      "sim": 851,
      "yester": 852,
      "inf": 853,
      "##oms": 854,
      "shop": 855,
      "che": 856,
      "direct": 857,
      "desc": 858,
      "bre": 859,
      "emp": 860,
      "hal": 861,
      "lar": 862,
      "poss": 863,
      "sw": 864,
      "west": 865,
      "##dd": 866,
      "three": 867,
      "##atter": 868,
      "today": 869,
      "##ank": 870,
      "##ained": 871,
      "world": 872,
      "partic": 873,
      "americ": 874,
      "better": 875,
      "incre": 876,
      "nat": 877,
      "nap": 878,
      "sit": 879,
      "##ning": 880,
      "##ug": 881,
      "##iend": 882,
      "##haps": 883,
      "##ys": 884,
      "perhaps": 885,
      "roy": 886,
      "country": 887,
      "yesterday": 888,
      "cer": 889,
      "full": 890,
      "mac": 891,
      "mil": 892,
      "sol": 893,
      "ve": 894,
      "##gin": 895,
      "##old": 896,
      "##most": 897,
      "##wards": 898,
      "##uring": 899,
      "ste": 900,
      "friend": 901,
      "british": 902,
      "return": 903,
      "children": 904,
      "000": 905,
      "wom": 906,
      "##red": 907,
      "##son": 908,
      "##asing": 909,
      "##ided": 910,
      "ext": 911,
      "##iew": 912,
      "wrote": 913,
      "mark": 914,
      "something": 915,
      "har": 916,
      "law": 917,
      "sent": 918,
      "yet": 919,
      "##ined": 920,
      "##atch": 921,
      "##ision": 922,
      "##ash": 923,
      "##ason": 924,
      "##ale": 925,
      "##ement": 926,
      "strong": 927,
      "foll": 928,
      "number": 929,
      "naples": 930,
      "days": 931,
      "el": 932,
      "national": 933,
      "opp": 934,
      "sou": 935,
      "use": 936,
      "##less": 937,
      "##ib": 938,
      "##ced": 939,
      "##bers": 940,
      "##ures": 941,
      "start": 942,
      "##thing": 943,
      "##cip": 944,
      "##ages": 945,
      "tell": 946,
      "consid": 947,
      "interest": 948,
      "##fferent": 949,
      "eyes": 950,
      "half": 951,
      "18": 952,
      "air": 953,
      "gu": 954,
      "got": 955,
      "pub": 956,
      "rest": 957,
      "##ron": 958,
      "wel": 959,
      "seen": 960,
      "nothing": 961,
      "almost": 962,
      "does": 963,
      "##oney": 964,
      "offic": 965,
      "##ccess": 966,
      "john": 967,
      "charac": 968,
      "film": 969,
      "particular": 970,
      "ap": 971,
      "auth": 972,
      "away": 973,
      "em": 974,
      "less": 975,
      "ple": 976,
      "sat": 977,
      "wond": 978,
      "water": 979,
      "##not": 980,
      "really": 981,
      "ass": 982,
      "prime": 983,
      "def": 984,
      "##ption": 985,
      "##itted": 986,
      "feel": 987,
      "polic": 988,
      "##gether": 989,
      "asked": 990,
      "character": 991,
      "both": 992,
      "clear": 993,
      "each": 994,
      "wa": 995,
      "##ted": 996,
      "##up": 997,
      "##pect": 998,
      "success": 999,
      "enj": 1000,
      "##ife": 1001,
      "prepar": 1002,
      "report": 1003,
      "action": 1004,
      "secret": 1005,
      "month": 1006,
      "es": 1007,
      "gay": 1008,
      "hu": 1009,
      "hop": 1010,
      "hard": 1011,
      "id": 1012,
      "##yp": 1013,
      "##ward": 1014,
      "##eder": 1015,
      "took": 1016,
      "##aster": 1017,
      "heart": 1018,
      "once": 1019,
      "prob": 1020,
      "move": 1021,
      "comple": 1022,
      "patient": 1023,
      "describ": 1024,
      "certain": 1025,
      "bar": 1026,
      "best": 1027,
      "came": 1028,
      "case": 1029,
      "pot": 1030,
      "val": 1031,
      "##ium": 1032,
      "##ool": 1033,
      "##orn": 1034,
      "##ently": 1035,
      "real": 1036,
      "##urch": 1037,
      "prod": 1038,
      "##amb": 1039,
      "##ists": 1040,
      "love": 1041,
      "cannot": 1042,
      "quite": 1043,
      "among": 1044,
      "##loy": 1045,
      "import": 1046,
      "earth": 1047,
      "talks": 1048,
      "enjoy": 1049,
      "det": 1050,
      "fig": 1051,
      "gre": 1052,
      "hum": 1053,
      "table": 1054,
      "taken": 1055,
      "wife": 1056,
      "##uation": 1057,
      "##pl": 1058,
      "##mill": 1059,
      "##by": 1060,
      "##stand": 1061,
      "read": 1062,
      "stand": 1063,
      "stud": 1064,
      "church": 1065,
      "next": 1066,
      "live": 1067,
      "##ffic": 1068,
      "contr": 1069,
      "letter": 1070,
      "##velop": 1071,
      "service": 1072,
      "author": 1073,
      "dem": 1074,
      "fall": 1075,
      "pay": 1076,
      "power": 1077,
      "tim": 1078,
      "treat": 1079,
      "##lud": 1080,
      "beh": 1081,
      "##ows": 1082,
      "ital": 1083,
      "another": 1084,
      "press": 1085,
      "cond": 1086,
      "conc": 1087,
      "##osition": 1088,
      "trans": 1089,
      "enough": 1090,
      "book": 1091,
      "become": 1092,
      "early": 1093,
      "policy": 1094,
      "described": 1095,
      "bri": 1096,
      "five": 1097,
      "ke": 1098,
      "mod": 1099,
      "pear": 1100,
      "past": 1101,
      "##ner": 1102,
      "##az": 1103,
      "##ually": 1104,
      "##ien": 1105,
      "##gr": 1106,
      "##ove": 1107,
      "##ley": 1108,
      "develop": 1109,
      "exper": 1110,
      "plan": 1111,
      "arri": 1112,
      "food": 1113,
      "looked": 1114,
      "slight": 1115,
      "trem": 1116,
      "temper": 1117,
      "school": 1118,
      "elect": 1119,
      "21": 1120,
      "cut": 1121,
      "eur": 1122,
      "hour": 1123,
      "la": 1124,
      "rad": 1125,
      "ter": 1126,
      "##li": 1127,
      "##ee": 1128,
      "##ph": 1129,
      "##ming": 1130,
      "##hip": 1131,
      "thir": 1132,
      "health": 1133,
      "change": 1134,
      "mean": 1135,
      "##ished": 1136,
      "adm": 1137,
      "##ives": 1138,
      "perf": 1139,
      "president": 1140,
      "towns": 1141,
      "effective": 1142,
      "europe": 1143,
      "cap": 1144,
      "du": 1145,
      "fear": 1146,
      "ken": 1147,
      "six": 1148,
      "tired": 1149,
      "ver": 1150,
      "##ew": 1151,
      "together": 1152,
      "inv": 1153,
      "##ets": 1154,
      "fore": 1155,
      "hist": 1156,
      "##ember": 1157,
      "##ablish": 1158,
      "##rial": 1159,
      "##gel": 1160,
      "whole": 1161,
      "doct": 1162,
      "boy": 1163,
      "sym": 1164,
      "syst": 1165,
      "##uction": 1166,
      "establish": 1167,
      "aff": 1168,
      "big": 1169,
      "blo": 1170,
      "face": 1171,
      "lu": 1172,
      "rich": 1173,
      "rome": 1174,
      "view": 1175,
      "##ru": 1176,
      "##vious": 1177,
      "##sw": 1178,
      "##cil": 1179,
      "##hold": 1180,
      "##ines": 1181,
      "##ared": 1182,
      "##ically": 1183,
      "##ute": 1184,
      "##ides": 1185,
      "rev": 1186,
      "##urd": 1187,
      "pri": 1188,
      "conference": 1189,
      "necess": 1190,
      "##ield": 1191,
      "unt": 1192,
      "discuss": 1193,
      "probably": 1194,
      "during": 1195,
      "feder": 1196,
      "ir": 1197,
      "ni": 1198,
      "##ah": 1199,
      "##tic": 1200,
      "##ead": 1201,
      "things": 1202,
      "##ories": 1203,
      "why": 1204,
      "heard": 1205,
      "##idence": 1206,
      "shown": 1207,
      "having": 1208,
      "chap": 1209,
      "##empt": 1210,
      "conf": 1211,
      "##ourn": 1212,
      "soon": 1213,
      "bring": 1214,
      "ord": 1215,
      "office": 1216,
      "##bert": 1217,
      "##augh": 1218,
      "##ances": 1219,
      "subject": 1220,
      "given": 1221,
      "called": 1222,
      "183": 1223,
      "system": 1224,
      "main": 1225,
      "round": 1226,
      "vis": 1227,
      "##wh": 1228,
      "##erous": 1229,
      "##iness": 1230,
      "##oria": 1231,
      "##rew": 1232,
      "##str": 1233,
      "##uro": 1234,
      "stop": 1235,
      "hahn": 1236,
      "##illed": 1237,
      "##ains": 1238,
      "##emann": 1239,
      "around": 1240,
      "quest": 1241,
      "understand": 1242,
      "desp": 1243,
      "present": 1244,
      "household": 1245,
      "seems": 1246,
      "england": 1247,
      "method": 1248,
      "employ": 1249,
      "public": 1250,
      "pleas": 1251,
      "hahnemann": 1252,
      "dang": 1253,
      "mist": 1254,
      "mother": 1255,
      "##iet": 1256,
      "##gy": 1257,
      "##ock": 1258,
      "##ont": 1259,
      "heav": 1260,
      "##vers": 1261,
      "##ility": 1262,
      "sugg": 1263,
      "##ries": 1264,
      "sail": 1265,
      "able": 1266,
      "committ": 1267,
      "##selves": 1268,
      "mauro": 1269,
      "second": 1270,
      "seemed": 1271,
      "build": 1272,
      "believed": 1273,
      "large": 1274,
      "tremble": 1275,
      "doctor": 1276,
      "suggest": 1277,
      "coup": 1278,
      "done": 1279,
      "free": 1280,
      "red": 1281,
      "rather": 1282,
      "rhod": 1283,
      "var": 1284,
      "##ral": 1285,
      "##row": 1286,
      "##la": 1287,
      "##ef": 1288,
      "##oc": 1289,
      "##sol": 1290,
      "##bt": 1291,
      "story": 1292,
      "##ament": 1293,
      "##ately": 1294,
      "##ived": 1295,
      "room": 1296,
      "##avour": 1297,
      "##peration": 1298,
      "tax": 1299,
      "macmill": 1300,
      "human": 1301,
      "pearl": 1302,
      "210": 1303,
      "sympt": 1304,
      "priest": 1305,
      "nigel": 1306,
      "rhodes": 1307,
      "macmillan": 1308,
      "dri": 1309,
      "fine": 1310,
      "father": 1311,
      "mal": 1312,
      "making": 1313,
      "money": 1314,
      "pie": 1315,
      "typ": 1316,
      "##use": 1317,
      "##gu": 1318,
      "##ering": 1319,
      "##ats": 1320,
      "tom": 1321,
      "##arch": 1322,
      "ref": 1323,
      "stre": 1324,
      "##vered": 1325,
      "france": 1326,
      "neg": 1327,
      "light": 1328,
      "##elt": 1329,
      "agre": 1330,
      "##itten": 1331,
      "proble": 1332,
      "written": 1333,
      "includ": 1334,
      "##athy": 1335,
      "medical": 1336,
      "symptoms": 1337,
      "body": 1338,
      "fail": 1339,
      "favour": 1340,
      "felt": 1341,
      "hom": 1342,
      "imm": 1343,
      "matter": 1344,
      "pain": 1345,
      "sing": 1346,
      "##rit": 1347,
      "##ged": 1348,
      "##inary": 1349,
      "##ench": 1350,
      "##arm": 1351,
      "short": 1352,
      "answ": 1353,
      "prot": 1354,
      "trad": 1355,
      "knew": 1356,
      "ground": 1357,
      "usual": 1358,
      "different": 1359,
      "##thern": 1360,
      "coll": 1361,
      "writing": 1362,
      "result": 1363,
      "196": 1364,
      "added": 1365,
      "din": 1366,
      "journ": 1367,
      "land": 1368,
      "turn": 1369,
      "turned": 1370,
      "wind": 1371,
      "##ring": 1372,
      "##och": 1373,
      "##oke": 1374,
      "##su": 1375,
      "##con": 1376,
      "##zy": 1377,
      "##itch": 1378,
      "whet": 1379,
      "##ury": 1380,
      "deal": 1381,
      "death": 1382,
      "doing": 1383,
      "group": 1384,
      "commons": 1385,
      "anything": 1386,
      "remember": 1387,
      "express": 1388,
      "repres": 1389,
      "regard": 1390,
      "meeting": 1391,
      "important": 1392,
      "foreign": 1393,
      "whether": 1394,
      "av": 1395,
      "dan": 1396,
      "sam": 1397,
      "sound": 1398,
      "side": 1399,
      "win": 1400,
      "##side": 1401,
      "##eng": 1402,
      "##ready": 1403,
      "chief": 1404,
      "except": 1405,
      "##ush": 1406,
      "already": 1407,
      "##ants": 1408,
      "##umb": 1409,
      "roll": 1410,
      "##nedy": 1411,
      "consult": 1412,
      "didn": 1413,
      "record": 1414,
      "corpor": 1415,
      "happen": 1416,
      "phil": 1417,
      "members": 1418,
      "industry": 1419,
      "simp": 1420,
      "ide": 1421,
      "complete": 1422,
      "arrived": 1423,
      "kennedy": 1424,
      "until": 1425,
      "committee": 1426,
      "bit": 1427,
      "coun": 1428,
      "fac": 1429,
      "fast": 1430,
      "fire": 1431,
      "lear": 1432,
      "tast": 1433,
      "##rod": 1434,
      "##lt": 1435,
      "##mitted": 1436,
      "##ze": 1437,
      "##erv": 1438,
      "##atist": 1439,
      "##omic": 1440,
      "##ention": 1441,
      "shar": 1442,
      "show": 1443,
      "##ames": 1444,
      "byron": 1445,
      "sold": 1446,
      "united": 1447,
      "##umption": 1448,
      "rock": 1449,
      "##ended": 1450,
      "themselves": 1451,
      "write": 1452,
      "polit": 1453,
      "attempt": 1454,
      "northern": 1455,
      "asking": 1456,
      "open": 1457,
      "doubt": 1458,
      "famil": 1459,
      "american": 1460,
      "development": 1461,
      "federal": 1462,
      "rhodesia": 1463,
      "aver": 1464,
      "bott": 1465,
      "ce": 1466,
      "ga": 1467,
      "mass": 1468,
      "mater": 1469,
      "squ": 1470,
      "##ris": 1471,
      "##ped": 1472,
      "##ience": 1473,
      "##zie": 1474,
      "##ination": 1475,
      "##ator": 1476,
      "towards": 1477,
      "white": 1478,
      "##ional": 1479,
      "##irc": 1480,
      "pract": 1481,
      "sel": 1482,
      "notice": 1483,
      "##pped": 1484,
      "saw": 1485,
      "brother": 1486,
      "along": 1487,
      "ener": 1488,
      "aged": 1489,
      "agree": 1490,
      "evidence": 1491,
      "fell": 1492,
      "maj": 1493,
      "evening": 1494,
      "expect": 1495,
      "returned": 1496,
      "saying": 1497,
      "advice": 1498,
      "eye": 1499,
      "easily": 1500,
      "extra": 1501,
      "movement": 1502,
      "duke": 1503,
      "burd": 1504,
      "circ": 1505,
      "equ": 1506,
      "fif": 1507,
      "ge": 1508,
      "late": 1509,
      "mom": 1510,
      "pa": 1511,
      "##aut": 1512,
      "##ev": 1513,
      "##ping": 1514,
      "##sp": 1515,
      "##ern": 1516,
      "##outh": 1517,
      "##read": 1518,
      "begin": 1519,
      "held": 1520,
      "reason": 1521,
      "##vering": 1522,
      "##ction": 1523,
      "search": 1524,
      "exact": 1525,
      "brown": 1526,
      "trou": 1527,
      "train": 1528,
      "leave": 1529,
      "arm": 1530,
      "##ending": 1531,
      "event": 1532,
      "##aged": 1533,
      "diffic": 1534,
      "commun": 1535,
      "##ific": 1536,
      "inde": 1537,
      "text": 1538,
      "foot": 1539,
      "##airs": 1540,
      "black": 1541,
      "##uced": 1542,
      "support": 1543,
      "hands": 1544,
      "opened": 1545,
      "gives": 1546,
      "business": 1547,
      "accept": 1548,
      "##porary": 1549,
      "sense": 1550,
      "increasing": 1551,
      "woman": 1552,
      "particularly": 1553,
      "prepared": 1554,
      "necessary": 1555,
      "difficult": 1556,
      "aw": 1557,
      "dest": 1558,
      "east": 1559,
      "fa": 1560,
      "fur": 1561,
      "flo": 1562,
      "gave": 1563,
      "master": 1564,
      "nuc": 1565,
      "position": 1566,
      "sk": 1567,
      "sort": 1568,
      "ult": 1569,
      "vill": 1570,
      "##ten": 1571,
      "##uel": 1572,
      "thing": 1573,
      "##orth": 1574,
      "##ouch": 1575,
      "##oti": 1576,
      "##iding": 1577,
      "##ither": 1578,
      "##though": 1579,
      "fright": 1580,
      "##ops": 1581,
      "sever": 1582,
      "separ": 1583,
      "sure": 1584,
      "living": 1585,
      "although": 1586,
      "##aper": 1587,
      "peace": 1588,
      "remark": 1589,
      "knows": 1590,
      "central": 1591,
      "##wealth": 1592,
      "job": 1593,
      "surf": 1594,
      "general": 1595,
      "family": 1596,
      "delight": 1597,
      "colour": 1598,
      "possible": 1599,
      "friends": 1600,
      "secretary": 1601,
      "richards": 1602,
      "irrit": 1603,
      "negoti": 1604,
      "journey": 1605,
      "creat": 1606,
      "econ": 1607,
      "fish": 1608,
      "gent": 1609,
      "gav": 1610,
      "kind": 1611,
      "oth": 1612,
      "run": 1613,
      "##uly": 1614,
      "##een": 1615,
      "##gress": 1616,
      "##oe": 1617,
      "##fact": 1618,
      "##yond": 1619,
      "##ature": 1620,
      "##orrow": 1621,
      "##ars": 1622,
      "##ality": 1623,
      "beyond": 1624,
      "##acy": 1625,
      "suit": 1626,
      "##olog": 1627,
      "social": 1628,
      "whose": 1629,
      "means": 1630,
      "##igr": 1631,
      "therefore": 1632,
      "##akes": 1633,
      "grant": 1634,
      "pret": 1635,
      "tele": 1636,
      "compan": 1637,
      "married": 1638,
      "expl": 1639,
      "croch": 1640,
      "care": 1641,
      "obs": 1642,
      "##ized": 1643,
      "easy": 1644,
      "occur": 1645,
      "commonwealth": 1646,
      "african": 1647,
      "situation": 1648,
      "women": 1649,
      "consider": 1650,
      "control": 1651,
      "behind": 1652,
      "history": 1653,
      "taste": 1654,
      "gavin": 1655,
      "others": 1656,
      "crochet": 1657,
      "ber": 1658,
      "bed": 1659,
      "bank": 1660,
      "ca": 1661,
      "hot": 1662,
      "hope": 1663,
      "im": 1664,
      "line": 1665,
      "mot": 1666,
      "sign": 1667,
      "##na": 1668,
      "##ts": 1669,
      "##ril": 1670,
      "##rang": 1671,
      "##lin": 1672,
      "##ps": 1673,
      "##atory": 1674,
      "##ases": 1675,
      "##ices": 1676,
      "##ots": 1677,
      "##ured": 1678,
      "shall": 1679,
      "franc": 1680,
      "##used": 1681,
      "sand": 1682,
      "unc": 1683,
      "organ": 1684,
      "above": 1685,
      "loc": 1686,
      "##unch": 1687,
      "prem": 1688,
      "appro": 1689,
      "became": 1690,
      "contin": 1691,
      "##ully": 1692,
      "english": 1693,
      "proper": 1694,
      "schem": 1695,
      "inform": 1696,
      "harry": 1697,
      "april": 1698,
      "demand": 1699,
      "pleasant": 1700,
      "heavy": 1701
    }
  }
}